0_25_param_0 12.586850 12.109315 27.595690 10.456877 9.614921 35.905499 22.025066 11.429899 6.892224 15.193716 15.295385 9.045609 8.497862 12.009293 33.905518 5.361010 17.023569 29.348551 9.337702 11.352666 285.471222 10.040326 21.933405 10.518077 5.835669 10.476437 23.996977 9.620565 15.627858 18.549120 35.687263 16.687887 
1_33_param_0 164.861069 363.864349 298.010834 459.657227 644.540649 655.888611 158.167435 79.842812 159.649261 176.744293 299.634979 180.608490 247.079788 721.085876 924.066345 570.507568 277.382507 604.442993 165.507645 474.498901 164.652618 481.401550 174.640503 217.817413 428.616516 219.886353 208.170639 140.081772 271.516510 225.752396 302.680145 243.681671 214.080139 173.960144 225.611053 146.464569 358.509857 179.980881 159.340088 192.827927 222.927002 211.431244 210.207001 859.774109 834.023376 472.820435 572.462952 698.371277 1367.008179 178.140961 274.012909 415.861237 173.152512 60.123402 235.349045 120.575386 138.470337 591.016174 174.661880 504.309265 802.567322 638.248169 183.392487 258.867126 
2_41_param_0 151.917206 45.478981 73.564903 114.738655 180.270187 111.947365 112.290794 242.341217 139.280106 126.594917 85.592499 128.476990 85.656647 89.824791 112.274506 103.486549 117.505280 83.370987 122.853828 65.520126 16.553280 108.592278 81.131714 16.554134 85.538643 58.165260 215.123184 99.302895 138.264374 157.775894 137.861038 156.925323 130.356750 140.939163 160.298813 209.325714 246.086807 86.264877 131.404129 218.698074 105.506561 188.738342 153.139389 82.922668 213.688309 124.212852 220.559753 150.204971 186.083878 160.418976 102.149155 148.126083 152.212646 270.417755 88.093094 280.566711 249.173492 81.868690 68.413643 46.113510 119.392067 295.923218 78.996323 69.974495 
4_54_param_0 70.661964 57.945206 111.149773 83.342361 83.490982 58.652943 47.748928 37.065357 36.934864 103.602669 107.523087 49.049835 33.731731 47.337795 91.342705 48.178505 31.551777 86.240028 64.267448 59.609806 75.320808 103.951164 52.900204 62.844799 38.828991 58.470009 46.763084 56.738556 84.557098 34.990944 64.212990 40.479042 
5_62_param_0 85.533691 104.542152 109.334412 164.524048 87.037773 96.608963 126.623322 74.568687 83.081215 112.540375 186.816437 91.016083 102.796822 101.166756 106.940834 101.235199 141.842606 121.865578 84.913696 109.355469 114.862762 38.641727 48.967682 82.852806 174.048752 54.795708 73.630531 102.796516 99.318710 102.335693 82.518875 47.112133 
7_73_param_0 176.781387 211.583084 125.719086 158.150940 190.851776 210.469437 195.345367 119.535797 110.256126 101.685394 88.590614 143.606339 153.060059 157.310532 244.178604 230.706650 169.521927 238.763824 136.633804 180.425079 133.706299 173.848389 258.676819 254.504623 164.881699 177.473358 126.895378 89.657532 217.884949 175.276520 192.483566 273.359985 155.489594 142.002167 110.148857 148.631454 188.597000 206.877228 182.579865 187.437012 172.809250 200.972656 233.277023 183.708313 144.888489 189.675766 65.813637 176.289413 181.007446 241.250107 221.460861 125.522316 224.865067 236.082001 213.609467 187.140656 270.933899 162.341095 178.697601 227.933716 107.228455 148.282471 128.849075 137.629013 
10_88_param_0 136.039902 148.948563 107.237740 169.316681 56.646683 95.301880 39.972672 225.527039 249.683044 206.787003 104.220146 194.944794 118.093285 378.711304 98.957947 126.671974 127.707626 148.055405 231.502472 310.921387 252.052643 244.576294 209.019180 124.471687 318.483612 200.183960 188.804398 171.506744 276.782501 226.669907 106.855804 192.644592 178.843353 130.266205 182.550919 40.300144 108.057159 147.276352 189.810379 235.838211 65.383507 138.367188 157.194748 131.264999 64.068207 53.731747 205.314011 150.582092 93.949066 83.025871 101.545097 252.412247 131.396194 166.705856 197.916168 170.666489 175.692825 64.113060 118.104042 149.505142 222.268814 170.542114 134.483246 225.581192 395.700836 259.133759 333.738770 195.382584 329.232880 216.500916 442.689636 244.945068 253.917297 193.765656 142.583542 241.760895 340.143677 485.476440 371.069336 201.983078 325.046356 319.774902 407.344543 251.297867 197.862473 429.872223 283.965546 281.068726 257.674225 282.715881 432.337646 243.713013 234.579437 388.835846 439.154327 239.546982 315.386841 258.756470 406.394989 53.004799 255.647934 177.701675 317.425262 239.375275 257.363129 225.601013 268.553528 200.290024 281.762878 191.327927 150.304230 121.994194 188.821899 252.987061 103.145027 191.704041 215.818710 274.929779 382.035156 191.325531 65.383522 494.858032 250.133652 371.963196 245.783447 114.747635 111.237579 204.414230 
12_101_param_0 140.893616 116.312080 66.157875 128.748871 75.813087 84.153870 164.612488 64.254959 93.047989 42.359985 83.851112 131.039948 51.021923 84.611320 101.431404 68.337646 155.819382 62.020916 93.367714 87.520409 64.151596 60.531651 136.196442 58.195961 74.537720 58.771255 66.262611 81.915390 78.934669 83.206276 76.732994 149.392105 139.312759 96.044861 42.676842 59.952244 75.933762 105.615913 137.090515 56.227310 91.751617 117.511253 109.814301 68.394791 69.170853 39.475346 67.602600 39.013046 122.830025 68.397057 40.969814 96.972816 142.396179 114.333282 95.036201 82.099594 68.228172 83.583527 118.288910 120.421021 63.573494 85.191818 122.914742 48.045437 
13_109_param_0 143.222916 98.531998 186.933167 163.510712 128.897232 129.658615 115.176315 149.982620 150.330750 93.932747 115.278358 142.944061 96.896912 126.738190 127.653473 157.577225 107.474121 119.172607 127.274597 73.569626 104.440323 88.956902 155.203659 181.443604 62.419960 97.940758 110.913300 154.210434 122.499344 102.914673 124.422829 163.600830 112.680779 103.621887 193.389084 128.624786 140.311951 113.116005 120.767021 147.458832 136.526169 132.172272 164.222961 168.007629 114.996918 109.729210 136.570374 186.844955 97.953514 141.850204 122.407646 139.415726 128.604874 148.683792 161.437088 112.605812 125.355896 107.613716 111.359123 138.851105 133.044632 111.140289 99.618164 69.154991 
15_120_param_0 195.399094 335.730804 166.154495 207.951111 302.448334 202.052841 210.584396 194.843857 236.435165 279.099182 293.219666 186.098770 189.595413 182.997726 243.099594 334.722443 384.131866 267.384033 103.852226 421.435760 169.076843 175.980911 200.087036 242.839645 171.840668 130.731247 269.218750 257.746033 352.910767 239.655991 248.513260 211.705643 289.506927 383.311829 320.385376 307.782928 259.896606 249.910004 174.541061 229.661011 181.078476 275.464996 296.558899 291.414398 285.411896 329.665466 212.118805 267.172791 294.212830 142.555054 206.097961 384.008789 256.523743 159.502090 217.735031 216.728943 159.780991 298.116882 125.859840 219.622055 244.006851 226.262711 352.863586 214.585251 230.265732 159.181580 185.816513 305.858093 240.356140 257.159058 329.972656 190.217743 209.521515 367.935791 282.484711 265.124847 299.412048 251.130707 181.142593 189.270554 297.547302 237.721802 322.320831 176.241364 242.216919 267.788635 192.200470 206.114532 164.396820 196.740936 334.039642 434.435455 292.115540 224.476501 154.091263 244.911819 240.100647 258.543457 299.880066 113.458611 140.361557 303.110718 273.061432 193.809189 166.176712 310.641022 255.938828 207.027084 345.793427 300.906677 197.618790 136.414246 257.102722 184.470551 179.210052 337.769318 190.934448 275.268829 360.658447 165.556412 237.466660 335.172150 200.499557 256.856567 215.881348 263.156219 235.304916 249.543289 
18_135_param_0 121.978798 176.127167 152.140488 248.228973 168.704620 217.080719 230.068115 294.371887 288.662323 192.469345 64.967209 198.479980 168.466995 195.310715 68.934547 249.950500 301.864960 175.898499 223.803757 124.884125 93.070877 172.514008 205.489853 245.089005 229.068130 147.385025 116.666969 196.096313 163.597672 237.196732 240.689072 256.046204 277.615692 124.704041 280.890472 120.801064 146.644485 315.103424 157.454468 173.671921 201.664932 113.366402 183.862183 201.679047 171.817993 257.016602 275.666412 175.460144 50.819004 170.548950 166.899658 432.283295 164.912170 319.692169 205.560822 182.412918 199.441071 106.309341 227.153809 227.694031 227.823425 259.283936 183.125122 209.370453 124.459793 262.162781 215.416595 154.356964 148.599915 190.489746 66.617027 159.863205 258.287476 189.215195 129.927185 294.502289 270.828491 244.924133 217.908783 123.120270 182.899582 351.579590 174.823792 212.797943 117.705460 169.601593 187.301514 178.013199 110.522171 336.692871 261.603149 187.499039 215.421631 183.346710 286.484619 184.763550 270.286102 137.304749 253.397964 155.820648 325.385406 173.325272 269.566742 324.486633 94.558968 212.259064 93.079330 271.642609 161.959366 270.477478 232.032288 110.473511 242.185593 123.381607 177.300354 149.724899 113.691856 97.954765 96.339500 150.128815 208.104919 168.570999 256.509430 203.360886 232.096283 200.872498 99.828667 184.044449 103.700668 277.903015 610.521423 276.344849 462.206299 243.433167 259.273804 518.273987 520.636719 375.729950 193.540131 336.697327 311.984039 287.959900 236.432983 117.133369 468.047577 372.629364 538.829651 188.325928 236.204941 574.532227 241.580109 635.757202 470.108063 201.706512 414.189270 545.712952 102.575096 144.748550 254.997742 293.077850 190.719147 374.003998 307.473999 108.458977 168.232468 455.736633 333.723022 211.127365 173.655502 198.195053 111.202942 273.283264 350.813049 491.369568 67.070740 376.089630 271.966949 302.448486 153.716003 327.482147 196.944824 106.811638 204.252563 135.813507 373.493500 363.528870 214.445923 172.586151 230.643127 253.973755 237.421204 211.328781 298.427399 225.495468 328.252930 660.168884 112.525169 274.640411 229.337219 492.499451 354.298462 537.078003 484.464722 135.547623 130.646240 642.249817 137.867218 103.807243 335.191803 281.000671 488.078613 195.607452 542.989197 377.295563 621.827515 471.809601 129.540268 381.161316 766.426819 383.030975 511.532410 455.087921 322.341705 538.793579 253.765793 453.155151 481.659210 543.906311 230.390411 363.251831 708.505432 586.040649 275.122131 180.833115 251.342590 266.518829 132.163437 188.081024 343.002197 399.948334 244.448792 186.084991 89.044228 397.144623 201.240128 330.670502 453.048065 191.535278 65.153320 677.607727 196.047943 265.800079 424.677094 87.740906 376.566559 364.036011 
20_148_param_0 69.403809 91.202644 105.972977 77.840454 73.723228 102.281082 57.204418 95.147736 80.028183 85.731735 137.646790 86.374718 88.481567 186.370956 135.272919 190.057388 106.094139 158.043747 119.430298 81.825699 106.176270 140.572052 151.047409 102.607315 58.079529 69.132866 123.811066 107.747726 54.018784 86.925423 75.199913 90.014427 98.898193 194.595673 36.310791 131.997574 61.339104 186.058670 68.164589 83.298302 84.800262 82.651085 132.506271 48.836205 62.841434 72.624840 99.486557 96.892227 68.387619 77.138046 61.353561 139.943695 79.449913 74.237724 73.310944 55.158390 87.057716 67.584503 57.498131 32.897099 130.893219 72.619293 110.691673 59.095081 103.995583 77.589592 132.570511 46.582703 122.159271 89.759125 109.991127 158.218933 65.089401 86.542870 139.661667 57.326355 125.413704 99.527222 102.693581 70.739410 87.223625 104.624382 166.303619 96.670067 68.575577 102.795334 70.092262 58.410118 104.290977 62.076225 68.436569 88.517532 56.012928 89.816406 126.958855 85.803001 113.278099 79.446693 66.931664 82.366615 83.830383 72.716309 107.433678 89.266579 80.653473 56.313648 165.270004 86.642128 83.701843 120.323959 88.964920 89.822090 60.853031 66.046646 102.007790 110.481499 86.276398 60.710331 60.059372 103.320328 144.162125 90.533272 126.723320 62.175701 71.513100 69.756790 136.333038 59.154842 
21_156_param_0 114.307579 78.813721 217.179611 80.733246 178.438171 99.710556 186.250626 128.365677 124.855499 207.194504 132.763519 161.031815 134.915863 149.310226 103.784309 121.853096 135.958572 178.552155 135.724411 127.901863 145.332886 142.190887 86.004036 105.843613 101.152473 127.995399 110.151329 91.478447 103.120346 64.288467 105.498474 123.407196 145.802536 194.186050 101.688217 131.284912 174.028870 177.214844 112.942764 132.191895 103.439384 167.780060 139.072479 63.564079 222.671783 236.481766 135.493713 125.641617 196.520386 130.976669 138.134872 161.192307 95.013458 103.625633 109.448753 140.134598 80.660049 84.458633 109.721870 87.995071 109.779190 183.509949 146.127151 175.588196 123.585793 140.041046 144.744293 135.685822 186.845901 103.861015 203.817017 182.401505 133.373413 200.490585 72.532417 176.586807 210.884995 73.163506 202.470627 141.729263 169.700424 191.432373 62.725548 75.116547 94.007080 111.950150 161.115814 148.992065 81.587784 96.098854 108.317619 92.870354 103.601730 128.253998 173.909576 98.452118 195.127090 125.877357 70.322685 108.573349 183.061401 90.276611 162.263474 107.424416 161.819794 193.503448 77.018509 119.937050 164.674713 196.181656 69.802124 219.546295 113.889618 123.265358 141.062271 104.024033 170.718460 164.416031 102.737885 126.561577 85.562523 243.596252 157.155289 130.287308 140.454651 66.699982 138.932251 186.364761 
23_167_param_0 170.398697 433.208649 227.738434 287.158630 285.224945 130.876709 258.088226 288.561737 298.682098 280.450378 328.757202 381.194336 293.130096 353.394745 244.776459 267.659332 341.940582 171.099899 252.820923 374.750366 117.143044 238.425949 429.561371 248.865784 209.540817 368.529022 315.643860 232.399475 252.222031 457.726471 255.662262 328.000824 209.782257 203.046082 381.980438 377.799896 237.790802 279.515228 224.591324 184.393814 138.860016 267.650787 210.485397 207.179199 284.524567 236.755478 266.615875 255.669754 366.650970 357.939087 268.347504 275.071350 255.169510 419.078735 377.871063 193.380615 472.974213 349.961975 188.513672 253.219635 434.783661 359.266052 166.844254 452.170441 377.301208 289.184021 302.700287 190.199295 328.112732 296.323883 341.427612 283.037048 318.240997 300.592041 335.634033 286.152649 227.533615 200.243820 284.516174 163.496979 278.187378 290.326752 252.874741 363.870422 217.239090 233.458832 197.558029 253.704880 383.053741 326.258240 152.452332 131.978333 277.470306 313.852417 178.299774 161.658707 304.391541 230.845016 127.818504 215.699570 237.975067 243.484787 212.809540 273.817993 244.856827 409.128174 260.417267 151.297058 317.003632 300.997009 280.974518 188.385284 276.425171 412.416626 190.328018 240.685944 187.170364 194.497177 240.512360 386.640717 319.921814 329.001617 154.776993 126.385193 333.526367 281.706238 304.808411 110.452896 315.170868 300.250031 242.957397 252.862198 306.754883 345.964905 243.973434 195.714554 237.614090 300.800171 153.015411 207.393234 207.748001 259.414825 308.382507 231.088898 697.300598 236.121017 352.171356 367.849457 118.008286 339.660217 436.914337 389.499908 176.580948 260.734894 363.422821 238.268677 265.305847 681.877441 188.847046 263.373230 283.990845 351.322571 335.045197 379.698059 244.362869 258.653534 224.120224 437.935364 298.577057 203.350708 254.748322 270.942780 304.259155 500.222076 348.085327 317.943115 348.256531 325.636932 371.430206 422.451965 221.374023 334.815338 284.371704 194.007263 330.541931 219.466766 269.916473 303.374603 268.342804 185.151611 314.282318 189.024216 204.470184 250.955597 296.036469 416.448761 283.753052 366.455719 207.048355 291.761169 374.262115 223.660187 341.982635 316.209442 255.859756 134.767303 334.151520 307.174042 408.062103 486.495544 145.057266 351.718414 231.260132 195.434509 362.919403 425.008423 181.422806 236.157837 300.473969 406.447723 230.182007 215.116837 441.374634 168.787247 155.618515 243.820251 347.626007 199.474701 242.982330 342.374969 477.088898 284.883301 441.988373 363.498291 373.456696 217.387146 206.698395 250.231842 371.667816 301.188049 255.220047 338.369934 298.179688 296.780792 332.065643 254.013412 311.396240 246.705399 322.979645 374.527557 268.590515 298.842255 379.508728 308.516022 283.421356 195.813873 
26_182_param_0 406.909393 380.823151 144.997223 285.255707 165.705338 220.318115 176.262115 179.712097 221.081528 415.114380 386.078583 482.094635 157.155548 429.331482 351.640015 490.802032 214.488342 351.687531 494.884338 255.572037 293.694946 381.534515 299.222290 239.182404 483.059692 249.363953 244.546967 371.531403 266.081116 319.111603 213.851593 334.136902 251.866821 158.514130 120.100388 189.373627 264.110748 389.650665 434.540192 278.812012 456.834412 333.565369 261.439362 633.177063 321.443268 362.944733 670.790466 564.076721 368.145782 190.407532 285.599213 337.796661 280.303314 405.545105 208.478912 418.936890 119.418861 594.630493 323.453949 436.882446 384.616913 257.148163 370.239166 253.748672 508.146729 210.325058 387.043152 477.617340 144.019287 341.927979 271.634216 183.958939 371.659576 510.610413 534.348694 485.624542 492.277618 289.232697 248.638367 426.045624 425.502686 212.278488 197.022888 391.347321 322.579742 277.238342 254.584061 330.139160 462.028381 322.760712 293.914703 438.354767 200.714294 386.100586 253.219681 400.743286 288.611847 135.035736 547.000610 214.878479 318.043579 194.971848 229.324051 202.720047 249.704727 240.930878 186.627365 132.668762 232.093246 210.905212 418.375092 535.169922 445.387360 495.370483 238.839508 301.507446 520.875549 486.442169 181.058289 337.716248 191.279572 397.445984 462.619690 398.975922 427.861725 117.805984 169.417053 296.181519 269.738403 700.908020 491.956268 215.101105 272.664490 502.292542 143.202576 381.670868 56.707699 184.460953 276.764069 220.904648 239.051376 405.976959 399.834625 229.938934 478.106873 404.460815 374.605774 381.176544 145.564392 461.905151 165.935547 443.191315 321.350281 432.453308 220.643265 305.186829 328.222321 332.540894 290.847351 207.297577 722.605774 162.074341 426.250397 281.111847 173.053741 171.960220 337.029785 299.708160 399.309570 123.753029 292.762451 367.143158 388.696014 420.515350 335.702911 388.027252 139.688370 199.295212 345.913300 432.949371 213.121826 414.081787 128.836960 389.271515 281.860840 341.781006 492.651947 400.191681 363.796173 228.239456 234.059494 222.530090 324.252289 205.288177 278.947693 378.237396 245.277603 346.302185 343.885834 248.419632 155.141205 511.136871 262.508179 173.757538 276.516388 383.065216 455.121857 316.442535 345.840179 144.743500 317.801788 352.340240 266.832428 441.575043 228.525650 223.538025 193.726837 551.626831 515.136353 238.948029 114.524040 389.772491 350.979187 488.859497 388.416779 209.598251 382.517426 232.412247 250.780991 223.381699 260.960175 270.429626 238.473633 459.554047 393.237122 416.786499 423.651794 130.959686 137.169479 305.966614 332.634399 237.417496 289.979218 238.491898 481.251038 147.164673 123.528290 178.535843 606.563416 109.367455 168.125824 191.711182 310.607666 143.721100 251.875763 392.121918 145.669327 334.408356 401.480835 430.279022 380.905640 110.553101 193.311279 390.450806 235.585846 480.153503 447.782715 593.749023 296.954132 307.772003 287.663330 242.930847 300.682861 328.346527 224.927536 269.413910 237.779343 333.945801 304.057373 251.799545 436.885376 304.430725 479.600220 244.692947 294.478790 469.271057 320.220856 483.644562 196.277847 531.595947 290.110016 191.125549 126.209290 172.451385 521.654297 389.399261 299.742188 291.454163 123.979027 334.024231 424.867645 295.172516 198.248672 235.758072 302.644257 305.500458 341.995453 327.659546 326.031830 228.320465 336.601166 354.184570 551.769775 282.451538 205.855255 231.465179 248.000046 346.801788 452.377075 330.426453 284.600983 331.152191 407.236115 561.283569 277.753326 96.092209 396.664337 360.629242 126.978874 448.452911 347.220520 57.613689 267.407104 446.422333 400.828491 358.370148 131.205032 435.747742 432.993347 256.757965 302.171234 199.228821 273.846954 230.949295 383.363678 204.973816 476.189178 427.008240 559.280212 312.666840 137.620392 375.727661 247.707169 293.174103 433.176880 251.766983 356.695160 182.057968 417.252350 190.351181 319.570587 335.811401 121.913139 270.321320 289.481079 329.217834 190.096176 425.284271 114.066620 248.172836 497.707397 403.859894 326.850464 298.540558 507.442230 258.759949 357.471588 146.752457 230.909912 381.658539 392.602844 294.164642 273.013519 575.127197 416.835724 454.876404 108.781578 277.654724 210.555557 308.129761 146.620346 241.008301 207.953491 156.283386 326.696259 269.261139 435.042786 526.644531 254.906418 391.331726 436.544342 305.919556 353.227386 423.544495 330.043152 151.039429 388.260803 106.218018 494.915192 512.036377 616.975830 354.708649 444.258728 341.848602 350.604126 294.550171 373.886444 595.894104 455.981903 236.872589 347.701782 344.452087 274.121368 211.216522 306.684296 380.740906 364.886078 224.595901 401.014221 224.600052 394.391449 475.184113 106.990456 226.412918 382.960114 345.970398 468.385529 406.673004 204.946793 445.163971 509.995972 331.423828 355.989990 223.874664 166.469040 145.647873 399.319946 432.068481 211.175476 244.705780 280.267609 275.773773 123.232262 447.006561 332.074280 232.677307 192.008026 137.308899 127.184448 336.087982 342.898010 166.138000 422.158142 372.490845 138.281479 292.989319 414.142487 351.043549 427.889557 338.069824 284.490112 308.225555 285.593933 509.631439 223.002792 410.103668 181.845947 241.114456 295.482544 239.109436 354.556122 192.696426 424.843933 229.368652 376.297089 335.920715 466.478149 231.937836 206.038712 258.808563 269.251312 325.374847 252.693207 427.724976 361.361511 384.064819 457.974182 323.704529 285.355896 346.880951 220.591736 144.912369 205.888824 405.653625 346.908966 351.165039 343.692810 143.817276 240.277817 524.665100 355.650177 236.023834 
27_192_param_0 193.668823 426.707794 302.298737 206.917389 240.646027 735.794678 354.692444 314.496155 276.457520 387.008545 300.826508 138.926666 308.709686 123.749794 510.047943 163.137115 287.554474 116.868378 171.469254 215.290192 216.874847 581.484070 404.141907 310.020691 192.505920 163.541794 163.295517 680.589294 291.758820 383.507751 170.824829 139.870209 289.280304 224.366776 226.929428 375.099854 287.933838 429.928741 138.151031 328.258270 343.312469 216.030045 270.471588 216.362686 493.585968 521.427368 522.740051 209.433746 410.971344 126.820366 122.193893 325.429321 135.574860 554.969360 102.452644 247.235550 153.976608 378.609589 401.087219 252.233765 229.319717 400.808472 161.082962 383.766144 162.735229 159.024277 318.769409 218.891083 335.963043 215.840546 216.190109 261.494202 167.261261 390.116028 227.806488 148.652344 159.285110 185.489212 189.212814 191.926865 148.918610 231.766098 136.470779 294.935425 712.663513 249.242691 298.606567 158.860352 439.693146 387.512115 320.542664 234.746948 810.151428 185.117599 199.813904 364.851837 148.437302 223.943527 201.775299 198.058914 358.904602 150.234985 147.069260 212.286407 164.352417 316.786896 154.166885 320.807281 124.411049 149.108749 199.006912 637.354919 424.176636 267.883942 130.041306 157.870956 234.975372 390.927185 317.376740 135.709961 259.478943 155.679031 162.777695 150.249573 143.198700 239.024796 320.612183 209.954330 322.561035 140.805618 290.440338 151.894775 717.952271 175.647964 184.936844 115.661827 226.464508 138.583084 295.917755 273.936462 114.372231 465.134735 149.530914 147.918213 150.071625 564.142151 299.570923 282.216888 456.033325 513.980652 167.684845 177.512344 193.229431 214.490723 179.747375 190.726791 423.402466 172.047058 309.397705 383.279419 128.682312 307.603210 195.218826 445.333191 153.627975 273.134064 266.888062 135.397980 230.875610 370.101715 281.252747 349.521912 408.353516 149.647476 306.242523 257.039246 471.426666 216.173691 159.223495 206.699890 278.535675 225.050797 431.046173 468.161957 122.651993 250.656372 166.433960 386.929108 750.678894 366.006927 199.354752 365.862854 257.035889 412.238831 158.221970 644.024170 137.150757 234.548126 268.269623 237.743103 275.396088 268.395355 286.680023 255.721268 172.428223 149.969009 830.084229 174.124115 191.647552 944.353638 139.430313 237.221680 71.518867 159.543945 357.104523 139.774597 75.419846 523.220398 512.398010 169.699020 396.842712 265.875793 452.795563 267.564697 610.994629 156.074158 377.412476 217.682648 410.579895 556.741333 320.868439 152.848282 248.722504 136.174393 271.922272 159.357559 168.652176 343.699310 158.617691 381.612457 405.374817 123.989990 170.280380 338.755615 271.477203 172.326981 479.374634 495.913879 507.170990 329.422852 264.073669 235.477997 199.270950 594.396790 346.758179 351.725739 
28_200_param_0 86.482170 66.636978 126.088814 109.758034 321.421143 82.297028 110.066605 34.382999 66.714294 50.771729 94.105278 72.475212 103.506798 99.699409 114.548050 143.532364 84.470360 83.983437 59.792995 154.843948 49.432091 102.163208 58.700645 182.006927 110.391861 62.803467 76.003891 83.302376 114.738632 88.157196 83.193321 83.002754 81.944572 51.471718 83.890427 61.238972 113.704819 68.912308 55.770084 60.659138 76.407967 82.128944 100.772575 109.161842 63.728947 122.234444 78.333786 52.697575 59.793827 157.722748 106.738380 98.377319 80.035973 244.370621 84.726013 104.034470 83.184547 75.491470 85.023911 22.946648 143.128998 41.874115 47.866371 78.283058 82.290855 55.813633 81.203094 57.294426 59.793613 161.857376 71.978790 108.460770 43.139366 55.178421 106.796959 69.185104 65.907379 105.153931 102.448151 80.502319 130.098724 49.567860 118.555733 84.916664 57.411911 124.608009 81.198898 82.009178 84.744087 73.747261 53.970551 143.083069 93.392609 63.505219 85.420219 107.620193 74.729546 83.244278 106.706688 54.124928 81.925552 128.565048 83.242020 89.685623 84.056610 63.420017 57.167633 89.673561 139.700180 116.234390 82.224426 70.964035 50.193546 85.355850 54.308533 94.405479 87.192039 68.048347 112.169502 117.329857 119.731827 78.922028 71.271164 63.669613 141.232910 67.554298 68.732651 101.723053 46.407223 151.736572 74.366417 106.217995 65.599724 50.385334 63.011745 46.710556 136.095871 32.476734 96.282845 82.992760 67.699776 61.868637 19.842905 70.971550 133.144775 65.501511 123.019409 75.388985 59.631062 112.130699 124.308067 43.863682 68.869759 127.294243 141.007736 58.644562 100.721893 62.286968 78.822937 89.848061 83.688164 169.112518 82.624557 69.014900 61.840294 120.082222 70.912949 99.428680 48.931801 187.128204 78.430702 80.449234 48.610752 84.341469 85.097610 77.008675 219.353851 108.040192 92.882057 48.814823 54.461037 119.545212 99.214676 95.057495 126.947754 65.350151 50.544834 73.636887 48.127785 93.830574 93.321388 74.525398 51.951771 88.318954 81.816589 108.771500 83.030540 71.433464 85.656929 41.715004 129.590881 77.773041 84.434822 74.694794 69.366608 61.103458 95.735435 78.445190 112.140358 128.417053 59.744694 57.423283 134.747955 69.501648 81.258522 98.465546 103.064873 91.170006 91.161346 81.623573 93.555710 64.577362 80.257858 55.989632 79.204315 50.169479 94.726662 79.733482 109.666473 66.503105 28.200346 97.168159 124.507271 68.197166 63.264694 54.263916 48.847755 80.006378 61.832691 68.511223 63.973934 82.308296 84.286682 52.228821 54.455318 94.455643 101.884560 104.221657 70.284752 76.121559 52.196712 126.471779 65.210953 100.046959 103.458954 92.877632 71.714142 89.268181 85.728775 40.593117 93.579704 42.899643 65.631729 148.615082 86.530540 82.584419 69.046577 157.563904 104.134743 96.681717 153.660843 47.341709 82.867188 88.036842 107.734940 77.566467 93.737846 132.984573 114.523499 57.483418 24.726748 87.360435 43.240196 149.171158 33.962231 113.808449 89.286934 81.591209 130.301453 104.406708 81.861633 71.902649 171.021317 56.651150 38.191612 99.922058 55.788841 72.236206 39.936066 62.246990 148.307587 48.606716 55.788368 81.345894 70.970612 35.740681 76.957047 71.871529 50.859184 45.004139 93.569214 81.818497 54.607647 74.209389 52.627888 69.685661 111.515739 53.588699 45.148300 66.366737 99.495117 82.399887 91.238663 72.861534 194.660767 76.077545 92.244408 77.614983 110.135345 129.320389 78.666512 95.070679 86.085808 77.966293 77.695129 106.233116 183.623459 93.485428 109.167320 90.341850 77.987518 108.020233 90.994377 67.397774 136.478683 72.740364 92.005302 103.563957 272.379333 99.457283 90.811890 69.158051 132.351303 38.645489 118.427925 49.762794 60.009377 82.224464 93.776962 87.146965 93.185234 71.744522 99.423401 113.361832 68.223564 64.917595 86.371063 115.136925 80.451759 90.984291 102.273354 98.012871 70.339752 42.491882 65.895416 87.042397 60.038700 87.487518 127.458214 193.731262 87.139977 68.355278 41.893875 65.870819 113.862793 88.578362 76.937164 60.077961 89.521271 77.479774 60.735210 150.917557 57.983772 64.785690 95.668358 88.053902 76.720016 197.453934 85.937866 118.741508 65.808266 108.541550 105.758110 105.066971 73.022926 137.795547 247.738098 84.713982 49.375481 63.192623 110.975395 78.788147 103.856071 64.536461 90.444588 82.155991 73.118423 106.244942 84.352463 96.335320 48.425240 44.584820 82.548950 132.139114 98.392349 121.121986 132.097778 86.708771 148.838669 54.561409 73.394623 77.073250 170.470901 63.028793 107.814201 98.442963 73.683456 82.564240 74.949112 110.226021 174.387772 95.152260 148.945633 210.372940 63.443348 59.834507 132.028488 152.721649 47.674854 113.914330 41.991631 69.659286 83.218742 82.086441 117.953331 67.457809 186.176254 91.723404 40.467155 67.144257 64.621216 80.172447 85.814789 156.294006 96.901199 50.998718 79.723427 68.147156 80.053810 70.308861 91.923859 84.935333 78.476555 126.602707 142.282608 77.651741 110.635574 77.423599 53.724186 63.456909 104.793739 21.091978 87.643547 59.086235 41.702496 71.064545 100.720650 87.309570 89.969002 25.973818 31.634602 68.231514 67.479042 67.697403 52.716766 84.098778 43.939117 97.837540 93.316284 81.826782 88.042664 54.982155 70.421646 95.366608 120.416801 59.898438 94.337387 87.848167 84.142921 168.840607 86.200890 59.553070 
29_208_param_0 861.044739 1331.024902 1773.604248 1361.912354 499.307404 615.291382 685.695435 1301.384277 906.376770 1570.425049 2312.676270 460.683777 655.023438 606.612610 2102.529785 2099.027832 2102.980957 2100.974365 593.893005 2098.006836 2102.152100 
32_236_param_0 333.584045 447.365265 424.619781 338.811829 259.765289 359.963440 268.029816 314.792145 319.658081 385.868958 311.974213 229.728729 421.825165 397.062378 288.066895 424.091858 308.572968 437.317505 515.340393 374.346741 289.191681 321.856415 425.898224 329.374298 349.805573 299.285645 258.208862 244.771652 354.551239 412.456635 270.100922 318.988708 369.393250 300.209473 314.124664 326.603821 349.802307 347.447937 320.336700 262.385834 350.375214 425.583191 339.258667 376.997101 362.573608 414.149414 383.924042 381.002686 329.212921 295.717743 370.867737 428.669708 228.116501 351.433167 348.040039 272.235992 405.331787 395.704041 408.372345 327.055939 278.007172 325.071899 383.036957 360.447327 479.833771 275.846558 282.371582 298.530121 398.647064 299.394348 518.370911 340.465027 318.934265 256.724945 439.546570 314.834656 454.134796 386.543640 406.663422 311.350494 286.147308 292.099274 315.110901 344.918854 435.095673 277.497528 347.899445 334.116760 331.823395 375.616272 564.068665 320.881226 468.134491 408.075653 324.147552 396.118652 341.560394 613.956848 346.795715 288.255127 369.718964 274.648651 314.181549 424.825470 321.817078 272.956726 291.342529 427.199799 329.810211 309.101868 466.605896 356.822205 374.454193 445.877899 370.650024 279.815674 318.174988 295.730225 332.863373 328.581299 376.946198 332.842346 559.463135 410.386475 314.465088 260.791260 366.507141 393.486786 
35_250_param_0 714.131287 659.309387 626.061951 590.491638 967.629211 736.915833 574.288574 423.063751 790.541748 641.665100 499.077637 475.353699 566.242371 595.009583 626.082214 612.556274 602.601929 699.833984 842.202515 744.968140 795.563843 574.162292 1010.427429 672.025757 614.541748 781.703247 580.536926 780.719055 920.400513 594.716003 717.630493 667.742676 684.157410 825.783020 737.680237 604.647095 678.843445 578.810486 588.951233 670.188904 612.553040 567.662170 815.250122 718.686768 548.308716 814.995667 646.441467 502.181641 647.137268 845.924377 612.811157 792.582397 842.452881 752.055359 729.067505 589.993958 544.572876 614.149475 566.636963 660.598999 555.854248 424.775024 489.399933 835.616943 438.695831 546.524597 460.191833 549.780518 561.962402 568.255615 838.299927 744.300171 703.217896 349.607666 738.231567 591.607117 645.313538 775.494812 694.905457 650.357178 721.095032 1063.220337 582.632019 771.588928 699.496338 536.619202 666.486389 783.392151 519.170593 650.180908 509.987579 353.904663 695.766357 687.048645 958.298157 577.568542 523.743042 588.292908 648.985291 439.547821 687.096313 815.746338 693.498108 513.691406 662.482849 527.620422 588.194763 694.808228 624.663940 729.317078 743.454590 733.323242 475.054321 824.017578 676.604980 711.021240 845.409058 562.716187 564.733032 881.990295 749.860168 582.692749 675.816895 708.673767 912.571533 587.019470 602.878540 578.023926 619.801086 563.983704 523.052979 599.135193 633.622559 556.908691 578.792419 874.708496 647.822693 538.080872 601.939270 818.494629 683.655518 798.946472 751.171204 491.987671 481.562378 358.329285 707.052917 752.790100 708.111755 730.687012 904.528503 855.788269 287.334534 867.060913 916.112366 524.138733 595.368103 888.878784 608.315247 490.806488 514.454590 850.933167 775.690552 693.664368 725.747498 769.849121 396.475403 546.857117 542.266052 730.127625 762.148743 721.017212 590.549988 784.602722 808.302307 695.481873 480.454529 581.544067 546.830627 488.655273 539.091064 534.363586 399.528778 612.008301 799.996826 643.885742 621.989746 610.760498 550.351135 616.473938 650.987244 628.272095 678.975281 622.473755 1040.156494 640.433044 755.137878 539.067688 554.329346 476.696930 822.882385 817.224426 911.362244 573.268005 493.536804 731.231323 395.978088 744.586060 586.244141 615.010376 590.896301 736.384583 558.633423 614.454895 398.002869 696.741394 523.555054 531.613647 545.473755 458.333527 748.213257 544.627075 672.431580 643.545471 812.126587 895.021301 598.933472 707.671997 612.397339 491.780609 794.934875 665.378052 678.284790 835.935669 700.458496 705.613770 607.808594 745.341370 591.918884 821.493958 611.469238 406.183350 751.895935 483.896942 803.592896 730.225098 627.521118 465.107422 626.040039 721.028320 490.720459 610.536804 787.222595 637.749268 784.345459 775.565308 
36_258_param_0 1261.567871 1293.807373 1458.172852 1448.820679 398.188751 653.457520 517.350342 1089.911499 1099.851685 1510.288086 1464.202759 449.732635 630.134766 589.537354 1223.354004 1227.447510 1587.103149 1251.991821 481.111053 574.855286 604.556641 
0_25 143.683533 
1_33 23.513578 
2_41 5.409544 
4_54 13.983857 
5_62 17.828169 
7_73 17.011372 
10_88 11.144149 
12_101 25.883703 
13_109 16.533150 
15_120 15.316065 
18_135 19.153828 
20_148 28.699862 
21_156 19.632521 
23_167 20.481487 
26_182 18.512161 
27_192 27.458755 
28_200 24.063789 
29_208 19.426287 
32_236 24.063789 
35_250 29.065151 
36_258 33.417782 
